
#define NNoutput &buffer0[4];

/* sram:168, flash:236 */
#define PEAK_MEM 168
#define MODEL_SIZE 236

static signed char buffer[168];
static signed char *buffer0 = &buffer[0];
static int16_t *sbuf = (int16_t *)&buffer[40];
static int16_t *kbuf = (int16_t *)&buffer[168];
const int SBuffer_size = 128;
const int KBuffer_size = 0;

const unsigned char weight0[160] = { 0x2d, 0x40, 0x72, 0x52, 0x61, 0x4e, 0x11, 0x4e, 0x37, 0x3c, 0x4c, 0x1a, 0x1f, 0x3b, 0x6c, 0x6c, 0x35, 0x48, 0x58, 0x51, 0x40, 0x25, 0x27, 0x10, 0x3d, 0x18, 0x2c, 0x29, 0x2b, 0x27, 0x65, 0x28, 0x62, 0x34, 0x0a, 0x60, 0x56, 0x57, 0x1c, 0x67, 0x02, 0x10, 0x0e, 0x79, 0x1e, 0x3d, 0x18, 0x2e, 0x69, 0x04, 0x2b, 0x37, 0x79, 0x78, 0x2f, 0x76, 0x56, 0x33, 0x63, 0x52, 0x3c, 0x49, 0x50, 0x3a, 0x3d, 0x6a, 0x6d, 0x3c, 0x67, 0x33, 0x1c, 0x14, 0x2f, 0x7b, 0x45, 0x76, 0x4b, 0x4c, 0x10, 0x54, 0x36, 0x32, 0x13, 0x3d, 0x53, 0x67, 0x59, 0x39, 0x58, 0x6a, 0x23, 0x39, 0x11, 0x32, 0x0d, 0x33, 0x27, 0x45, 0x30, 0x0d, 0x7b, 0x51, 0x0c, 0x01, 0x11, 0x30, 0x23, 0x59, 0x57, 0x35, 0x2d, 0x11, 0x33, 0x1c, 0x0d, 0x08, 0x07, 0x38, 0x38, 0x66, 0x2a, 0x29, 0x7c, 0x38, 0x7c, 0x44, 0x70, 0x50, 0x43, 0x0b, 0x3a, 0x36, 0x5a, 0x5f, 0x68, 0x12, 0x4d, 0x5a, 0x18, 0x13, 0x19, 0x23, 0x69, 0x76, 0x4a, 0x0d, 0x50, 0x23, 0x39, 0x01, 0x42, 0x79, 0x74, 0x71, 0x5b, 0x75, 0x57, 0x20, 0x63, 0x26};

const int32_t bias0[5] = {0, 0, 0, 0, 0, };
const float scales0[5] = {0.0011439498359565692, 0.001163324330275259, 0.0012701748125551588, 0.0011629343822638853, 0.0014085348475019685, };
const int32_t shift0[5] = {0, 0, 0, 0, 0, };
const int32_t multiplier0[5] = {1257786146, 1279088628, 1396571976, 1278659876, 1548700443, };
const unsigned char weight1[10] = { 0x81, 0xa8, 0x2b, 0x92, 0xb8, 0x81, 0xc3, 0x9c, 0x54, 0xc3, };
const int32_t bias1[2] = {-1671, -3098, };
const float scales1[2] = {6389.4365334047425, 4638.483046984463, };
const int32_t shift1[2] = {13, 13, };
const int32_t multiplier1[2] = {1674952451, 1215950500, };
const unsigned char weight2[2] = {0xf6, 0xf9, };
const int32_t bias2[1] = {1073741824, };
const float scales2[1] = {2.3748726e-07, };
const int32_t shift2[1] = {-22, };
const int32_t multiplier2[1] = {2139095040, };
